e Ġ
d Ġ
t h
Ġ a
. Ġ
t Ġ
y Ġ
s Ġ
n dĠ
t o
e r
e dĠ
th eĠ
, Ġ
w a
i n
h eĠ
to Ġ
o u
Ġa ndĠ
e n
h a
.Ġ T
Ġa Ġ
o m
s a
a r
Ġ theĠ
o n
h e
. 

i m
l l
g Ġ
wa sĠ
a n
o r
er Ġ
i t
a y
i d
i r
i sĠ
r e
p l
i l
edĠ toĠ
w i
a m
th e
l o
s t
r i
a Ġ
a ndĠ
.Ġ H
.Ġ S
o Ġ
he yĠ
.ĠH eĠ
Ġ h
n o
a tĠ
er eĠ
O n
wi th
u n
.ĠT heyĠ
in gĠ
p p
v er
.ĠT heĠ
c k
l i
" Ġ
b i
ll Ġ
l e
.ĠS heĠ
,Ġ "
d ay
u tĠ
om Ġ
b e
i tĠ
w Ġ
o k
sa id
y ou
in g
l eĠ
b o
m a
ha pp
e d
d o
l dĠ
b a
u p
en d
im Ġ
o f
g h
f ri
n e
a yĠ
s h
ver yĠ
an Ġ
c h
s e
f or
l Ġ
wa n
en Ġ
c eĠ
wa s
ha dĠ
it t
bi gĠ
said ,Ġ"
fri end
L il
e ,Ġ
v eĠ
r o
.
 

the yĠ
t edĠtoĠ
no tĠ
pl ay
On eĠ
.Ġ I
g e
itt leĠ
l ittleĠ
t im
h isĠ
was ĠaĠ
k eĠ
' sĠ
th atĠ
e s
a t
n am
OneĠ day
s heĠ
ou ldĠ
in ĠtheĠ
i dĠ
c ar
nam edĠ
h erĠ
b ir
y ĠandĠ
T heĠ
th ereĠ
th er
toĠ theĠ
r a
edĠ andĠ
w ereĠ
f e
on ĠaĠ
en tĠ
s oĠ
w h
sa w
" 

pl ayĠ
g o
, ĠandĠ
he l
wan tedĠtoĠ
you Ġ
r eĠ
b utĠ
On ceĠ
hel p
lo ok
w entĠ
s eĠ
I Ġ
up onĠaĠ
OnceĠ uponĠaĠ
OnceĠuponĠaĠ tim
edĠ theĠ
Ġh isĠ
y Ġa
ou ndĠ
with Ġ
! Ġ
thereĠ wasĠaĠ
f i
t a
s k
p o
f un
l a
c a
T imĠ
.ĠI tĠ
OnceĠuponĠaĠtim e,Ġ
e a
OneĠday ,Ġ
u r
to ge
s ĠandĠ
,Ġ butĠ
bir dĠ
Lil yĠ
s om
b eĠ
Ġh erĠ
of Ġ
T im
! "Ġ
t re
m yĠ
k Ġ
s tĠ
m Ġ
ck Ġ
p ar
wasĠ veryĠ
g ir
am eĠ
ir Ġ
, ĠaĠ
e t
s m
w n
m omĠ
e c
.

 OnceĠuponĠaĠtime,Ġ
c ameĠ
m om
c o
saw ĠaĠ
ne wĠ
g a
f u
.Ġ B
tĠ theĠ
t t
the irĠ
lo v
eĠ andĠ
on ĠtheĠ
i c
y ,Ġ
M a
ch Ġ
friend s
for Ġ
toge ther
Ma x
d idĠ
' tĠ
. "Ġ
gir lĠ
i s
play edĠ
ou gh
ha veĠ
u m
hadĠ aĠ
sm il
.Ġ A
tĠ toĠ
c ouldĠ
f a
. "

.
 "
happ y
c anĠ
.ĠT imĠ
e sĠ
s id
u eĠ
e x
b u
f oundĠ
m or
look edĠ
li k
wa y
st ar
o w
T om
s to
happ yĠ
.

OnceĠuponĠaĠtime,Ġ thereĠwasĠaĠ
didĠ notĠ
bo yĠ
in Ġ
n d
f r
T omĠ
fe l
sa idĠ
a l
to y
do gĠ
on Ġ
w ouldĠ
ha tĠ
som e
ou t
d ayĠ
Y ou
s p
ba ll
th erĠ
re a
o dĠ
e l
w or
Ġa n
k e
h o
li keĠ
.Ġ "
t er
l k
c atĠ
on eĠ
with ĠtheĠ
th ingĠ
p Ġ
? "Ġ
fel tĠ
o ,Ġ
r Ġ
v edĠ
p i
en t
S am
g r
.
 TheĠ
bi g
ma keĠ
s car
s ma
m u
m e
d d
wasĠ soĠ
d eĠ
th ing
lov edĠtoĠ
s ha
th ough
W h
littleĠ girlĠ
OneĠday ,ĠaĠ
in ĠaĠ
.Ġ OneĠday,Ġ
of ĠtheĠ
g oĠ
i gh
par k
.ĠB utĠ
.

 

star tedĠtoĠ
u g
lik edĠtoĠ
ou tĠ
se eĠ
m an
,Ġ theĠ
ma deĠ
u gh
bo x
Max Ġ
f o
fi ndĠ
t ri
ar n
e ll
p a
c om
M i
with ĠhisĠ
do wn
itĠ wasĠ
to o
friend sĠ
wan tĠtoĠ
k no
to ok
.
 OneĠday,Ġ
T heyĠ
fun Ġ
t r
Ġa reĠ
the m
some thingĠ
c at
ga in
sa y
o b
help Ġ
p utĠ
o p
.
 A
s un
u c
le arn
p u
l yĠ
f Ġ
li vedĠ
l on
sa d
wa lk
g re
p re
foundĠ aĠ
a ll
u seĠ
to yĠ
sa wĠ
q u
wi llĠ
d i
boyĠ namedĠ
e ver
ĠandĠ theĠ
Lil y
.Ġ 

he yĠa
t edĠ
ba ckĠ
bir d
o d
r edĠ
p r
go odĠ
n 'tĠ
fu lĠ
v erĠ
g i
b r
th Ġ
s w
happ yĠandĠ
c e
L uc
l d
h er
you rĠ
tre e
som eĠ
o ther
h im
S po
M om
n a
lo w
h om
la ugh
, "Ġ
.ĠT heyĠa
p e
smil edĠandĠ
o wĠ
a lĠ
t sĠ
.

 OneĠday,ĠaĠ
dĠ andĠ
s s
d er
en ,Ġ
w hatĠ
wh enĠ
the mĠ
ha n
edĠ herĠ
i ceĠ
ou nd
w eĠ
play ingĠ
do g
B enĠ
! "

You Ġ
st i
a sk
d a
ar Ġ
.ĠI Ġ
ba ck
d ec
sma llĠ
wh oĠ
S u
Ġa llĠ
to oĠ
es ,Ġ
ba llĠ
c it
littleĠgirlĠ namedĠ
sawĠaĠ bigĠ
u t
k newĠ
wa t
m o
S ueĠ
n yĠ
t 'sĠ
â 
ex cit
though tĠ
playĠ withĠ
way sĠ
man yĠ
c lo
dec id
with ĠherĠ
Ġa r
ĠaĠ bigĠ
c ou
wentĠ toĠtheĠ
be cameĠ
ca useĠ
out sid
big ,Ġ
W eĠ
um p
s or
sh Ġ
r yĠ
.ĠTheyĠ wereĠ
f f
edĠ hisĠ
c l
h ou
be causeĠ
ro om
ĠandĠ said,Ġ"
j u
bo thĠ
b le
say s
eĠ theĠ
r an
r anĠ
.ĠT omĠ
r y
fr om
be stĠ
he ar
go tĠ
e ndĠ
le a
on ,Ġ
tri edĠtoĠ
i ll
on 'tĠ
ar d
d oĠ
on e
r un
s ur
p ri
day ,Ġ
edĠ thatĠ
B utĠ
Lil yĠandĠ
to ldĠ
ea chĠ
car e
Mi aĠ
pre tt
B en
eĠ toĠ
decid edĠtoĠ
Ġa b
saw ĠtheĠ
in sid
s o
.Ġ F
ga veĠ
i ndĠ
for ĠaĠ
L et
pl a
.ĠTheĠ birdĠ
Ġa sk
ou dĠ
Sam Ġ
m anĠ
.Ġ LilyĠ
sur pri
up Ġ
l u
op en
t ĠandĠ
.ĠA ndĠ
b yĠ
mor eĠ
ha r
ra b
s u
Let 'sĠ
c an
f low
A n
fu l
h ug
c le
v e
d id
th an
Y es,Ġ
happyĠ toĠ
j ump
wasĠ notĠ
e p
Ġa way
c re
l y
t ur
sh ow
Wh enĠ
ta keĠ
lookedĠ atĠ
e veryĠ
sh in
omĠ thatĠ
s ,Ġ
no t
n Ġ
.Ġ E
happ en
tt er
Ġa l
Ġa gain
st r
B ob
littleĠ boyĠnamedĠ
C anĠ
kno wĠ
han kĠ
mor e
Luc yĠ
s i
Ġa ll
S ar
th isĠ
c he
j o
it eĠ
f le
it sĠ
o therĠ
omĠthatĠ dayĠ
sp ec
wa yĠ
ever y
e v
toge therĠ
the yĠa
? "

ge tĠ
m y
li st
fa st
be a
h imĠ
.ĠItĠ wasĠ
theyĠ wereĠ
ing ĠandĠ
for ĠtheĠ
wa r
d yĠ
on g
scar ed
il yĠ
pp edĠ
wa ter
with ĠaĠ
wentĠ toĠ
un der
im al
,ĠbutĠ heĠ
w e
said,Ġ" IĠ
d an
s .ĠTheyĠ
o ldĠ
couldĠ notĠ
d e
wor k
you ,Ġ
t u
did n'tĠ
spec i
T hankĠ
ing ĠtheĠ
p er
.ĠT h
tre eĠ
ck edĠ
o pl
f ter
thing sĠ
m eĠ
gh t
H eĠ
id ea
eachĠ other
.Ġ YouĠ
hear dĠ
.ĠHeĠ wantedĠtoĠ
g eĠ
Ġh im
'sĠ momĠ
tsĠ ofĠ
everyĠ day
Ġa tĠtheĠ
es ĠandĠ
happen ed
,Ġ heĠ
ne ar
lon g
ro ck
.Ġ WeĠ
than k
or Ġ
i fĠ
d re
lo tsĠofĠ
flow er
dd en
fri endĠ
Ġar oundĠ
n iceĠ
Tim ĠandĠ
hou se
ll edĠ
par kĠ
il eĠ
in toĠtheĠ
ed ,Ġ"
b leĠ
sma ll
ex p
ne verĠ
ha nd
f t
b l
u s
from ĠtheĠ
a llĠ
.ĠTheyĠ playedĠ
m ou
toy s
omĠthatĠdayĠ on,Ġ
ju stĠ
he a
gi veĠ
e st
sa dĠandĠ
Ġh er
k indĠ
wat ch
Spo tĠ
e atĠ
tur n
inĠtheĠ park
y more
v ingĠ
prett yĠ
pe opl
laugh edĠandĠ
e tĠ
f am
co l
u ck
J o
,ĠandĠ theĠ
.ĠT im
You ĠareĠ
smiledĠandĠ said,Ġ"
ha t
Ġ wasĠ
surpri s
h ur
Tom ĠandĠ
M omĠ
f in
K itt
.

OnceĠuponĠaĠtime,Ġ inĠaĠ
f ir
d on'tĠ
t w
cl im
il Ġ
f ro
S heĠ
bo ok
.ĠS ueĠ
e lĠ
.ĠTheyĠa llĠ
up ĠandĠ
sa dĠ
.


 

took Ġ
ic e
exp ec
hom e
b er
c u
toĠ beĠ
th enĠ
' mĠ
.ĠTheĠ catĠ
learn edĠthatĠ
sĠ theĠ
g ard
s qu
Mi a
clim b
un t
! 

all yĠ
an d
g g
madeĠ aĠ
h igh
.Ġ MaxĠ
toĠ playĠ
D a
g u
wn Ġ
t i
lovedĠtoĠ playĠ
po tĠ
haveĠ aĠ
cou ld
f ar
.ĠH isĠ
ev enĠ
.ĠS o,Ġ
s .ĠHeĠ
un expec
.
 TheyĠ
e pĠ
l id
se l
ne x
.ĠF r
toĠ hisĠ
,Ġ theyĠ
.ĠItĠ wasĠaĠ
I Ġa
in k
o ok
Su e
no w
wh ereĠ
dogĠ namedĠ
J a
p ic
s .ĠSheĠ
,Ġ soĠ
sha reĠ
unexpec tedĠ
fr omĠ
speci alĠ
pi ckedĠ
Ġa tĠ
edĠ aĠ
ll yĠ
Tim .ĠTimĠ
da dĠ
Sar a
mu chĠ
ou tĠtheĠ
e ar
ma k
t ra
Ġal waysĠ
r y,Ġ
.ĠHeĠ wasĠ
am Ġ
com eĠ
it ĠandĠ
,ĠandĠ theyĠ
s lid
sh ouldĠ
gr ound
heĠ wasĠ
s of
z z
t ĠaĠ
ThankĠ you,Ġ
b y
hadĠ anĠ
go od
col or
igh t
ta lk
in kĠ
list en
.
 TimĠ
.
 ButĠ
Ġa sĠ
somethingĠ unexpectedĠ
bea ut
s ĠaĠ
th at
l y,Ġ
ar oundĠ
lon gĠ
walk edĠ
somethingĠunexpectedĠ happened
lu ff
er ĠandĠ
co ok
fe el
u ckĠ
fe elĠ
b ra
took ĠtheĠ
in ĠhisĠ
box Ġ
kno w
ic Ġ
beaut i
hug g
putĠ theĠ
sha r
pic tu
n aĠ
mom ĠandĠ
OnceĠuponĠaĠtime,Ġ thereĠwasĠaĠ
wasĠveryĠ happy
ar k
.
 T
o l
.ĠI n
do or
fi shĠ
k id
.ĠSheĠ wasĠ
up ĠtheĠ
lo ck
toy sĠ
Ġab outĠ
br ok
edĠ itĠ
no i
smil ed
lo veĠ
ma g
.ĠTheĠ dogĠ
y um
."Ġ TheĠ
in ĠherĠ
Spo t
likedĠtoĠ playĠ
ingĠ toĠ
to ĠaĠ
nex tĠ
gir l
friend ,Ġ
car Ġ
gre atĠ
insid e
d ra
look Ġ
sti llĠ
livedĠ inĠaĠ
ft erĠ
sk y
thing s
pr oudĠ
tĠ ofĠ
Ġh om
w in
ou sĠ
I 'mĠ
tim e
s sĠ
An na
ĠallĠ day
.Ġ WhenĠ
m et
ne w
ow ,Ġ
c ha
th en,Ġ
e m
o ver
thatĠ heĠ
said,Ġ" Yes,Ġ
happ ilyĠ
n oĠ
dden ly,Ġ
sheĠ wasĠ
theyĠa llĠ
!Ġ TheĠ
edĠ a
erĠ momĠ
gh tĠ
it ch
.ĠTheyĠa reĠ
be tter
ing ,Ġ
pl an
fle wĠ
catĠ namedĠ
r u
he d
D oĠ
.Ġ N
.ĠS potĠ
m on
wantedĠtoĠ help
seeĠ theĠ
hadĠanĠ idea
peopl eĠ
t ir
,Ġ thereĠwasĠaĠ
.
A sĠ
I tĠ
fi sh
sti ck
ho wĠ
ou d
an imal
N o,Ġ
lov edĠ
though t
al waysĠ
st a
friend sĠandĠ
qu i
Ġan Ġ
th re
rea ch
ing ĠaĠ
could n'tĠ
e y
anĠ toĠ
fo odĠ
w ha
Ġh ou
be ingĠ
im p
no dd
fi x
clo s
sun Ġ
g am
bi tĠ
together ĠandĠ
for est
t in
.Ġ M
e at
p tĠ
or t
excit ed
gard en
c la
gr y
littleĠ birdĠ
p pl
â 
c ri
playedĠ withĠtheĠ
hadĠ toĠ
Jo h
at i
rab b
y ell
b ri
Ġa fter
girlĠ namedĠ
â 
in d
to u
tim eĠ
fo od
be for
L ook
outsid e
backĠ toĠ
lookedĠatĠ theĠ
ar eĠ
g ra
DoĠ youĠ
pa in
d r
.ĠItĠ isĠ
cle an
hou seĠ
da d
sh edĠ
care ful
wereĠ veryĠ
IĠa mĠ
H i
s le
tt erĠ
ne ed
b ro
hisĠ momĠ
lo tĠofĠ
sa tĠ
down Ġ
wasĠ sad
.ĠFr omĠthatĠdayĠon,Ġ
t y
of f
CanĠ IĠ
es s
bl ueĠ
h id
sĠ toĠ
to wn
near ĠtheĠ
wi ndĠ
an tĠ
ed ,Ġ
fa v
sto ryĠ
bu gĠ
ou rĠ
do ll
l kĠ
said .Ġ"
makeĠ aĠ
s po
.ĠS u
beauti fulĠ
at eĠ
,Ġ thereĠ
ir re
jump edĠ
v ent
H isĠ
says ,Ġ"
unt ilĠ
big ĠandĠ
me m
livedĠ happilyĠ
ca keĠ
playĠ withĠtheĠ
.ĠSheĠ wantedĠtoĠ
Kitt yĠ
e,Ġ butĠ
squ irre
scar edĠ
S o,Ġ
b rea
.ĠE veryĠ
c ry
ca lledĠ
theĠ bestĠ
tw oĠ
dayĠ long
? Ġ
g la
be arĠ
met ĠaĠ
hadĠ lotsĠofĠ
foundĠaĠ bigĠ
s he
mag icĠ
A myĠ
c on
Ġall ĠtheĠ
b un
f lo
IĠ willĠ
.Ġ YouĠareĠ
c or
surpris ed
en ĠtheĠ
every oneĠ
tre eĠandĠ
tr yĠ
,ĠbutĠ sheĠ
ke ptĠ
ou r
.

OnceĠuponĠaĠtime,ĠthereĠwasĠaĠ littleĠgirlĠnamedĠ
ba dĠ
Ġa d
open edĠtheĠ
hadĠaĠ bigĠ
b lock
en jo
.Ġ
 TheĠ
H ell
sun nyĠ
onĠtheĠ ground
on ĠhisĠ
s na
sh o
k itch
Ġh owĠ
shin yĠ
re mem
livedĠ aĠ
didĠnotĠ knowĠ
backĠ toĠtheĠ
fav or
is ĠaĠ
."
 TheĠ
An naĠ
str ong
.ĠSheĠ said,Ġ"
f lyĠ
ta ble
cameĠ toĠ
f ly
didĠnotĠ wantĠtoĠ
mu ch
l oudĠ
.ĠTheyĠ bothĠ
yĠa n
tr y
thoughtĠ itĠ
heardĠ aĠ
sa f
D on'tĠ
il y
ro w
v o
forĠ help
outĠ ofĠtheĠ
W hatĠ
favor iteĠ
Ġa wayĠ
cu ri
mor alĠ
le t'sĠ
youĠ canĠ
F luff
