{
  "0": "\u0000",
  "1": "\u0001",
  "2": "\u0002",
  "3": "\u0003",
  "4": "\u0004",
  "5": "\u0005",
  "6": "\u0006",
  "7": "\u0007",
  "8": "\b",
  "9": "\t",
  "10": "\n",
  "11": "\u000b",
  "12": "\f",
  "13": "\r",
  "14": "\u000e",
  "15": "\u000f",
  "16": "\u0010",
  "17": "\u0011",
  "18": "\u0012",
  "19": "\u0013",
  "20": "\u0014",
  "21": "\u0015",
  "22": "\u0016",
  "23": "\u0017",
  "24": "\u0018",
  "25": "\u0019",
  "26": "\u001a",
  "27": "\u001b",
  "28": "\u001c",
  "29": "\u001d",
  "30": "\u001e",
  "31": "\u001f",
  "32": " ",
  "33": "!",
  "34": "\"",
  "35": "#",
  "36": "$",
  "37": "%",
  "38": "&",
  "39": "'",
  "40": "(",
  "41": ")",
  "42": "*",
  "43": "+",
  "44": ",",
  "45": "-",
  "46": ".",
  "47": "/",
  "48": "0",
  "49": "1",
  "50": "2",
  "51": "3",
  "52": "4",
  "53": "5",
  "54": "6",
  "55": "7",
  "56": "8",
  "57": "9",
  "58": ":",
  "59": ";",
  "60": "<",
  "61": "=",
  "62": ">",
  "63": "?",
  "64": "@",
  "65": "A",
  "66": "B",
  "67": "C",
  "68": "D",
  "69": "E",
  "70": "F",
  "71": "G",
  "72": "H",
  "73": "I",
  "74": "J",
  "75": "K",
  "76": "L",
  "77": "M",
  "78": "N",
  "79": "O",
  "80": "P",
  "81": "Q",
  "82": "R",
  "83": "S",
  "84": "T",
  "85": "U",
  "86": "V",
  "87": "W",
  "88": "X",
  "89": "Y",
  "90": "Z",
  "91": "[",
  "92": "\\",
  "93": "]",
  "94": "^",
  "95": "_",
  "96": "`",
  "97": "a",
  "98": "b",
  "99": "c",
  "100": "d",
  "101": "e",
  "102": "f",
  "103": "g",
  "104": "h",
  "105": "i",
  "106": "j",
  "107": "k",
  "108": "l",
  "109": "m",
  "110": "n",
  "111": "o",
  "112": "p",
  "113": "q",
  "114": "r",
  "115": "s",
  "116": "t",
  "117": "u",
  "118": "v",
  "119": "w",
  "120": "x",
  "121": "y",
  "122": "z",
  "123": "{",
  "124": "|",
  "125": "}",
  "126": "~",
  "127": "",
  "128": "",
  "129": "",
  "130": "",
  "131": "",
  "132": "",
  "133": "",
  "134": "",
  "135": "",
  "136": "",
  "137": "",
  "138": "",
  "139": "",
  "140": "",
  "141": "",
  "142": "",
  "143": "",
  "144": "",
  "145": "",
  "146": "",
  "147": "",
  "148": "",
  "149": "",
  "150": "",
  "151": "",
  "152": "",
  "153": "",
  "154": "",
  "155": "",
  "156": "",
  "157": "",
  "158": "",
  "159": "",
  "160": " ",
  "161": "¡",
  "162": "¢",
  "163": "£",
  "164": "¤",
  "165": "¥",
  "166": "¦",
  "167": "§",
  "168": "¨",
  "169": "©",
  "170": "ª",
  "171": "«",
  "172": "¬",
  "173": "­",
  "174": "®",
  "175": "¯",
  "176": "°",
  "177": "±",
  "178": "²",
  "179": "³",
  "180": "´",
  "181": "µ",
  "182": "¶",
  "183": "·",
  "184": "¸",
  "185": "¹",
  "186": "º",
  "187": "»",
  "188": "¼",
  "189": "½",
  "190": "¾",
  "191": "¿",
  "192": "À",
  "193": "Á",
  "194": "Â",
  "195": "Ã",
  "196": "Ä",
  "197": "Å",
  "198": "Æ",
  "199": "Ç",
  "200": "È",
  "201": "É",
  "202": "Ê",
  "203": "Ë",
  "204": "Ì",
  "205": "Í",
  "206": "Î",
  "207": "Ï",
  "208": "Ð",
  "209": "Ñ",
  "210": "Ò",
  "211": "Ó",
  "212": "Ô",
  "213": "Õ",
  "214": "Ö",
  "215": "×",
  "216": "Ø",
  "217": "Ù",
  "218": "Ú",
  "219": "Û",
  "220": "Ü",
  "221": "Ý",
  "222": "Þ",
  "223": "ß",
  "224": "à",
  "225": "á",
  "226": "â",
  "227": "ã",
  "228": "ä",
  "229": "å",
  "230": "æ",
  "231": "ç",
  "232": "è",
  "233": "é",
  "234": "ê",
  "235": "ë",
  "236": "ì",
  "237": "í",
  "238": "î",
  "239": "ï",
  "240": "ð",
  "241": "ñ",
  "242": "ò",
  "243": "ó",
  "244": "ô",
  "245": "õ",
  "246": "ö",
  "247": "÷",
  "248": "ø",
  "249": "ù",
  "250": "ú",
  "251": "û",
  "252": "ü",
  "253": "ý",
  "254": "þ",
  "255": "ÿ",
  "256": "e ",
  "257": "d ",
  "258": "th",
  "259": " a",
  "260": ". ",
  "261": "t ",
  "262": "y ",
  "263": "s ",
  "264": "nd ",
  "265": "to",
  "266": "er",
  "267": "ed ",
  "268": "the ",
  "269": ", ",
  "270": "wa",
  "271": "in",
  "272": "he ",
  "273": "to ",
  "274": "ou",
  "275": " and ",
  "276": "en",
  "277": "ha",
  "278": ". T",
  "279": " a ",
  "280": "om",
  "281": "sa",
  "282": "ar",
  "283": " the ",
  "284": "on",
  "285": "he",
  "286": ".\n",
  "287": "im",
  "288": "ll",
  "289": "g ",
  "290": "was ",
  "291": "an",
  "292": "or",
  "293": "er ",
  "294": "it",
  "295": "ay",
  "296": "id",
  "297": "ir",
  "298": "is ",
  "299": "re",
  "300": "pl",
  "301": "il",
  "302": "ed to ",
  "303": "wi",
  "304": "am",
  "305": "the",
  "306": "lo",
  "307": "st",
  "308": "ri",
  "309": "a ",
  "310": "and ",
  "311": ". H",
  "312": ". S",
  "313": "o ",
  "314": "hey ",
  "315": ". He ",
  "316": " h",
  "317": "no",
  "318": "at ",
  "319": "ere ",
  "320": "On",
  "321": "with",
  "322": "un",
  "323": ". They ",
  "324": "ing ",
  "325": "pp",
  "326": "ver",
  "327": ". The ",
  "328": "ck",
  "329": "li",
  "330": "\" ",
  "331": "bi",
  "332": "ll ",
  "333": "le",
  "334": ". She ",
  "335": ", \"",
  "336": "day",
  "337": "ut ",
  "338": "om ",
  "339": "be",
  "340": "it ",
  "341": "w ",
  "342": "ok",
  "343": "said",
  "344": "you",
  "345": "ing",
  "346": "le ",
  "347": "bo",
  "348": "ma",
  "349": "happ",
  "350": "ed",
  "351": "do",
  "352": "ld ",
  "353": "ba",
  "354": "up",
  "355": "end",
  "356": "im ",
  "357": "of",
  "358": "gh",
  "359": "fri",
  "360": "ne",
  "361": "ay ",
  "362": "sh",
  "363": "very ",
  "364": "an ",
  "365": "ch",
  "366": "se",
  "367": "for",
  "368": "l ",
  "369": "wan",
  "370": "en ",
  "371": "ce ",
  "372": "was",
  "373": "had ",
  "374": "itt",
  "375": "big ",
  "376": "said, \"",
  "377": "friend",
  "378": "Lil",
  "379": "e, ",
  "380": "ve ",
  "381": "ro",
  "382": ".\n\n",
  "383": "they ",
  "384": "ted to ",
  "385": "not ",
  "386": "play",
  "387": "One ",
  "388": ". I",
  "389": "ge",
  "390": "ittle ",
  "391": "little ",
  "392": "tim",
  "393": "his ",
  "394": "was a ",
  "395": "ke ",
  "396": "'s ",
  "397": "that ",
  "398": "es",
  "399": "at",
  "400": "nam",
  "401": "One day",
  "402": "she ",
  "403": "ould ",
  "404": "in the ",
  "405": "id ",
  "406": "car",
  "407": "named ",
  "408": "her ",
  "409": "bir",
  "410": "y and ",
  "411": "The ",
  "412": "there ",
  "413": "ther",
  "414": "to the ",
  "415": "ra",
  "416": "ed and ",
  "417": "were ",
  "418": "fe",
  "419": "on a ",
  "420": "ent ",
  "421": "so ",
  "422": "wh",
  "423": "saw",
  "424": "\"\n",
  "425": "play ",
  "426": "go",
  "427": ", and ",
  "428": "hel",
  "429": "wanted to ",
  "430": "you ",
  "431": "re ",
  "432": "but ",
  "433": "Once ",
  "434": "help",
  "435": "look",
  "436": "went ",
  "437": "se ",
  "438": "I ",
  "439": "upon a ",
  "440": "Once upon a ",
  "441": "Once upon a tim",
  "442": "ed the ",
  "443": " his ",
  "444": "y a",
  "445": "ound ",
  "446": "with ",
  "447": "! ",
  "448": "there was a ",
  "449": "fi",
  "450": "ta",
  "451": "sk",
  "452": "po",
  "453": "fun",
  "454": "la",
  "455": "ca",
  "456": "Tim ",
  "457": ". It ",
  "458": "Once upon a time, ",
  "459": "ea",
  "460": "One day, ",
  "461": "ur",
  "462": "toge",
  "463": "s and ",
  "464": ", but ",
  "465": "bird ",
  "466": "Lily ",
  "467": "som",
  "468": "be ",
  "469": " her ",
  "470": "of ",
  "471": "Tim",
  "472": "!\" ",
  "473": "tre",
  "474": "my ",
  "475": "k ",
  "476": "st ",
  "477": "m ",
  "478": "ck ",
  "479": "par",
  "480": "was very ",
  "481": "gir",
  "482": "ame ",
  "483": "ir ",
  "484": ", a ",
  "485": "et",
  "486": "sm",
  "487": "wn",
  "488": "mom ",
  "489": "ec",
  "490": ".\n\nOnce upon a time, ",
  "491": "came ",
  "492": "mom",
  "493": "co",
  "494": "saw a ",
  "495": "new ",
  "496": "ga",
  "497": "fu",
  "498": ". B",
  "499": "t the ",
  "500": "tt",
  "501": "their ",
  "502": "lov",
  "503": "e and ",
  "504": "on the ",
  "505": "ic",
  "506": "y, ",
  "507": "Ma",
  "508": "ch ",
  "509": "friends",
  "510": "for ",
  "511": "together",
  "512": "Max",
  "513": "did ",
  "514": "'t ",
  "515": ".\" ",
  "516": "girl ",
  "517": "is",
  "518": "played ",
  "519": "ough",
  "520": "have ",
  "521": "um",
  "522": "had a ",
  "523": "smil",
  "524": ". A",
  "525": "t to ",
  "526": "could ",
  "527": "fa",
  "528": ".\"\n",
  "529": ".\n\"",
  "530": "happy",
  "531": "can ",
  "532": ". Tim ",
  "533": "es ",
  "534": "sid",
  "535": "ue ",
  "536": "ex",
  "537": "bu",
  "538": "found ",
  "539": "mor",
  "540": "looked ",
  "541": "lik",
  "542": "way",
  "543": "star",
  "544": "ow",
  "545": "Tom",
  "546": "sto",
  "547": "happy ",
  "548": ".\n\nOnce upon a time, there was a ",
  "549": "did not ",
  "550": "boy ",
  "551": "in ",
  "552": "nd",
  "553": "fr",
  "554": "Tom ",
  "555": "fel",
  "556": "said ",
  "557": "al",
  "558": "toy",
  "559": "dog ",
  "560": "on ",
  "561": "would ",
  "562": "hat ",
  "563": "some",
  "564": "out",
  "565": "day ",
  "566": "You",
  "567": "sp",
  "568": "ball",
  "569": "ther ",
  "570": "rea",
  "571": "od ",
  "572": "el",
  "573": "wor",
  "574": " an",
  "575": "ke",
  "576": "ho",
  "577": "like ",
  "578": ". \"",
  "579": "ter",
  "580": "lk",
  "581": "cat ",
  "582": "one ",
  "583": "with the ",
  "584": "thing ",
  "585": "p ",
  "586": "?\" ",
  "587": "felt ",
  "588": "o, ",
  "589": "r ",
  "590": "ved ",
  "591": "pi",
  "592": "ent",
  "593": "Sam",
  "594": "gr",
  "595": ".\nThe ",
  "596": "big",
  "597": "make ",
  "598": "scar",
  "599": "sma",
  "600": "mu",
  "601": "me",
  "602": "dd",
  "603": "was so ",
  "604": "de ",
  "605": "thing",
  "606": "loved to ",
  "607": "sha",
  "608": "though",
  "609": "Wh",
  "610": "little girl ",
  "611": "One day, a ",
  "612": "in a ",
  "613": ". One day, ",
  "614": "of the ",
  "615": "go ",
  "616": "igh",
  "617": "park",
  "618": ". But ",
  "619": ".\n\n\n",
  "620": "started to ",
  "621": "ug",
  "622": "liked to ",
  "623": "out ",
  "624": "see ",
  "625": "man",
  "626": ", the ",
  "627": "made ",
  "628": "ugh",
  "629": "box",
  "630": "Max ",
  "631": "fo",
  "632": "find ",
  "633": "tri",
  "634": "arn",
  "635": "ell",
  "636": "pa",
  "637": "com",
  "638": "Mi",
  "639": "with his ",
  "640": "down",
  "641": "it was ",
  "642": "too",
  "643": "friends ",
  "644": "want to ",
  "645": "kno",
  "646": "took",
  "647": ".\nOne day, ",
  "648": "They ",
  "649": "fun ",
  "650": "tr",
  "651": " are ",
  "652": "them",
  "653": "something ",
  "654": "cat",
  "655": "gain",
  "656": "say",
  "657": "ob",
  "658": "help ",
  "659": "put ",
  "660": "op",
  "661": ".\nA",
  "662": "sun",
  "663": "uc",
  "664": "learn",
  "665": "pu",
  "666": "ly ",
  "667": "f ",
  "668": "lived ",
  "669": "lon",
  "670": "sad",
  "671": "walk",
  "672": "gre",
  "673": "pre",
  "674": "found a ",
  "675": "all",
  "676": "use ",
  "677": "toy ",
  "678": "saw ",
  "679": "qu",
  "680": "will ",
  "681": "di",
  "682": "boy named ",
  "683": "ever",
  "684": " and the ",
  "685": "Lily",
  "686": ". \n",
  "687": "hey a",
  "688": "ted ",
  "689": "back ",
  "690": "bird",
  "691": "od",
  "692": "red ",
  "693": "pr",
  "694": "good ",
  "695": "n't ",
  "696": "ful ",
  "697": "ver ",
  "698": "gi",
  "699": "br",
  "700": "th ",
  "701": "sw",
  "702": "happy and ",
  "703": "ce",
  "704": "Luc",
  "705": "ld",
  "706": "her",
  "707": "your ",
  "708": "tree",
  "709": "some ",
  "710": "other",
  "711": "him",
  "712": "Spo",
  "713": "Mom",
  "714": "na",
  "715": "low",
  "716": "hom",
  "717": "laugh",
  "718": ",\" ",
  "719": ". They a",
  "720": "pe",
  "721": "smiled and ",
  "722": "ow ",
  "723": "al ",
  "724": "ts ",
  "725": ".\n\nOne day, a ",
  "726": "d and ",
  "727": "ss",
  "728": "der",
  "729": "en, ",
  "730": "what ",
  "731": "when ",
  "732": "them ",
  "733": "han",
  "734": "ed her ",
  "735": "ice ",
  "736": "ound",
  "737": "we ",
  "738": "playing ",
  "739": "dog",
  "740": "Ben ",
  "741": "!\"\n",
  "742": "You ",
  "743": "sti",
  "744": "ask",
  "745": "da",
  "746": "ar ",
  "747": ". I ",
  "748": "back",
  "749": "dec",
  "750": "small ",
  "751": "who ",
  "752": "Su",
  "753": " all ",
  "754": "too ",
  "755": "es, ",
  "756": "ball ",
  "757": "cit",
  "758": "little girl named ",
  "759": "saw a big ",
  "760": "ut",
  "761": "knew ",
  "762": "wat",
  "763": "mo",
  "764": "Sue ",
  "765": "ny ",
  "766": "t's ",
  "767": "â",
  "768": "excit",
  "769": "thought ",
  "770": "play with ",
  "771": "ways ",
  "772": "many ",
  "773": "clo",
  "774": "decid",
  "775": "with her ",
  "776": " ar",
  "777": " a big ",
  "778": "cou",
  "779": "went to the ",
  "780": "became ",
  "781": "cause ",
  "782": "outsid",
  "783": "big, ",
  "784": "We ",
  "785": "ump",
  "786": "sor",
  "787": "sh ",
  "788": "ry ",
  "789": ". They were ",
  "790": "ff",
  "791": "ed his ",
  "792": "cl",
  "793": "hou",
  "794": "because ",
  "795": "room",
  "796": " and said, \"",
  "797": "ju",
  "798": "both ",
  "799": "ble",
  "800": "says",
  "801": "e the ",
  "802": "ran",
  "803": "ran ",
  "804": ". Tom ",
  "805": "ry",
  "806": "from",
  "807": "best ",
  "808": "hear",
  "809": "got ",
  "810": "end ",
  "811": "lea",
  "812": "on, ",
  "813": "tried to ",
  "814": "ill",
  "815": "on't ",
  "816": "ard",
  "817": "do ",
  "818": "one",
  "819": "run",
  "820": "sur",
  "821": "pri",
  "822": "day, ",
  "823": "ed that ",
  "824": "But ",
  "825": "Lily and ",
  "826": "told ",
  "827": "each ",
  "828": "care",
  "829": "Mia ",
  "830": "prett",
  "831": "Ben",
  "832": "e to ",
  "833": "decided to ",
  "834": " ab",
  "835": "saw the ",
  "836": "insid",
  "837": "so",
  "838": ". F",
  "839": "gave ",
  "840": "ind ",
  "841": "for a ",
  "842": "Let",
  "843": "pla",
  "844": ". The bird ",
  "845": " ask",
  "846": "oud ",
  "847": "Sam ",
  "848": "man ",
  "849": ". Lily ",
  "850": "surpri",
  "851": "up ",
  "852": "lu",
  "853": "open",
  "854": "t and ",
  "855": ". And ",
  "856": "by ",
  "857": "more ",
  "858": "har",
  "859": "rab",
  "860": "su",
  "861": "Let's ",
  "862": "can",
  "863": "flow",
  "864": "An",
  "865": "ful",
  "866": "hug",
  "867": "cle",
  "868": "ve",
  "869": "did",
  "870": "than",
  "871": "Yes, ",
  "872": "happy to ",
  "873": "jump",
  "874": "was not ",
  "875": "ep",
  "876": " away",
  "877": "cre",
  "878": "ly",
  "879": "tur",
  "880": "show",
  "881": "When ",
  "882": "take ",
  "883": "looked at ",
  "884": "every ",
  "885": "shin",
  "886": "om that ",
  "887": "s, ",
  "888": "not",
  "889": "n ",
  "890": ". E",
  "891": "happen",
  "892": "tter",
  "893": " al",
  "894": " again",
  "895": "str",
  "896": "Bob",
  "897": "little boy named ",
  "898": "Can ",
  "899": "know ",
  "900": "hank ",
  "901": "more",
  "902": "Lucy ",
  "903": "si",
  "904": " all",
  "905": "Sar",
  "906": "this ",
  "907": "che",
  "908": "jo",
  "909": "ite ",
  "910": "fle",
  "911": "its ",
  "912": "other ",
  "913": "om that day ",
  "914": "spec",
  "915": "way ",
  "916": "every",
  "917": "ev",
  "918": "together ",
  "919": "they a",
  "920": "?\"\n",
  "921": "get ",
  "922": "my",
  "923": "list",
  "924": "fast",
  "925": "bea",
  "926": "him ",
  "927": ". It was ",
  "928": "they were ",
  "929": "ing and ",
  "930": "for the ",
  "931": "war",
  "932": "dy ",
  "933": "ong",
  "934": "scared",
  "935": "ily ",
  "936": "pped ",
  "937": "water",
  "938": "with a ",
  "939": "went to ",
  "940": "under",
  "941": "imal",
  "942": ", but he ",
  "943": "we",
  "944": "said, \"I ",
  "945": "dan",
  "946": "s. They ",
  "947": "old ",
  "948": "could not ",
  "949": "de",
  "950": "work",
  "951": "you, ",
  "952": "tu",
  "953": "didn't ",
  "954": "speci",
  "955": "Thank ",
  "956": "ing the ",
  "957": "per",
  "958": ". Th",
  "959": "tree ",
  "960": "cked ",
  "961": "opl",
  "962": "fter",
  "963": "things ",
  "964": "me ",
  "965": "ght",
  "966": "He ",
  "967": "idea",
  "968": "each other",
  "969": ". You ",
  "970": "heard ",
  "971": ". He wanted to ",
  "972": "ge ",
  "973": " him",
  "974": "'s mom ",
  "975": "ts of ",
  "976": "every day",
  "977": " at the ",
  "978": "es and ",
  "979": "happened",
  "980": ", he ",
  "981": "near",
  "982": "long",
  "983": "rock",
  "984": ". We ",
  "985": "thank",
  "986": "or ",
  "987": "if ",
  "988": "dre",
  "989": "lots of ",
  "990": "flower",
  "991": "dden",
  "992": "friend ",
  "993": " around ",
  "994": "nice ",
  "995": "Tim and ",
  "996": "house",
  "997": "lled ",
  "998": "park ",
  "999": "ile ",
  "1000": "into the ",
  "1001": "ed, \"",
  "1002": "ble ",
  "1003": "small",
  "1004": "exp",
  "1005": "never ",
  "1006": "hand",
  "1007": "ft",
  "1008": "bl",
  "1009": "us",
  "1010": "from the ",
  "1011": "all ",
  "1012": ". They played ",
  "1013": "mou",
  "1014": "toys",
  "1015": "om that day on, ",
  "1016": "just ",
  "1017": "hea",
  "1018": "give ",
  "1019": "est",
  "1020": "sad and ",
  "1021": " her",
  "1022": "kind ",
  "1023": "watch",
  "1024": "Spot ",
  "1025": "eat ",
  "1026": "turn",
  "1027": "in the park",
  "1028": "ymore",
  "1029": "ving ",
  "1030": "pretty ",
  "1031": "peopl",
  "1032": "laughed and ",
  "1033": "et ",
  "1034": "fam",
  "1035": "col",
  "1036": "uck",
  "1037": "Jo",
  "1038": ", and the ",
  "1039": ". Tim",
  "1040": "You are ",
  "1041": "smiled and said, \"",
  "1042": "hat",
  "1043": " was ",
  "1044": "surpris",
  "1045": "hur",
  "1046": "Tom and ",
  "1047": "Mom ",
  "1048": "fin",
  "1049": "Kitt",
  "1050": ".\n\nOnce upon a time, in a ",
  "1051": "fir",
  "1052": "don't ",
  "1053": "tw",
  "1054": "clim",
  "1055": "il ",
  "1056": "fro",
  "1057": "She ",
  "1058": "book",
  "1059": ". Sue ",
  "1060": "el ",
  "1061": ". They all ",
  "1062": "up and ",
  "1063": "sad ",
  "1064": ".\n\n\n\n",
  "1065": "took ",
  "1066": "ice",
  "1067": "expec",
  "1068": "home",
  "1069": "ber",
  "1070": "cu",
  "1071": "to be ",
  "1072": "then ",
  "1073": "'m ",
  "1074": ". The cat ",
  "1075": "learned that ",
  "1076": "s the ",
  "1077": "gard",
  "1078": "squ",
  "1079": "Mia",
  "1080": "climb",
  "1081": "unt",
  "1082": "!\n",
  "1083": "ally ",
  "1084": "and",
  "1085": "gg",
  "1086": "made a ",
  "1087": "high",
  "1088": ". Max ",
  "1089": "to play ",
  "1090": "Da",
  "1091": "gu",
  "1092": "wn ",
  "1093": "ti",
  "1094": "loved to play ",
  "1095": "pot ",
  "1096": "have a ",
  "1097": "could",
  "1098": "far",
  "1099": ". His ",
  "1100": "even ",
  "1101": ". So, ",
  "1102": "s. He ",
  "1103": "unexpec",
  "1104": ".\nThey ",
  "1105": "ep ",
  "1106": "lid",
  "1107": "sel",
  "1108": "nex",
  "1109": ". Fr",
  "1110": "to his ",
  "1111": ", they ",
  "1112": ". It was a ",
  "1113": "I a",
  "1114": "ink",
  "1115": "ook",
  "1116": "Sue",
  "1117": "now",
  "1118": "where ",
  "1119": "dog named ",
  "1120": "Ja",
  "1121": "pic",
  "1122": "s. She ",
  "1123": ", so ",
  "1124": "share ",
  "1125": "unexpected ",
  "1126": "from ",
  "1127": "special ",
  "1128": "picked ",
  "1129": " at ",
  "1130": "ed a ",
  "1131": "lly ",
  "1132": "Tim. Tim ",
  "1133": "dad ",
  "1134": "Sara",
  "1135": "much ",
  "1136": "out the ",
  "1137": "ear",
  "1138": "mak",
  "1139": "tra",
  "1140": " always ",
  "1141": "ry, ",
  "1142": ". He was ",
  "1143": "am ",
  "1144": "come ",
  "1145": "it and ",
  "1146": ", and they ",
  "1147": "slid",
  "1148": "should ",
  "1149": "ground",
  "1150": "he was ",
  "1151": "sof",
  "1152": "zz",
  "1153": "t a ",
  "1154": "Thank you, ",
  "1155": "by",
  "1156": "had an ",
  "1157": "good",
  "1158": "color",
  "1159": "ight",
  "1160": "talk",
  "1161": "ink ",
  "1162": "listen",
  "1163": ".\nTim ",
  "1164": ".\nBut ",
  "1165": " as ",
  "1166": "something unexpected ",
  "1167": "beaut",
  "1168": "s a ",
  "1169": "that",
  "1170": "ly, ",
  "1171": "around ",
  "1172": "long ",
  "1173": "walked ",
  "1174": "something unexpected happened",
  "1175": "luff",
  "1176": "er and ",
  "1177": "cook",
  "1178": "feel",
  "1179": "uck ",
  "1180": "feel ",
  "1181": "bra",
  "1182": "took the ",
  "1183": "in his ",
  "1184": "box ",
  "1185": "know",
  "1186": "ic ",
  "1187": "beauti",
  "1188": "hugg",
  "1189": "put the ",
  "1190": "shar",
  "1191": "pictu",
  "1192": "na ",
  "1193": "mom and ",
  "1194": "Once upon a time, there was a ",
  "1195": "was very happy",
  "1196": "ark",
  "1197": ".\nT",
  "1198": "ol",
  "1199": ". In",
  "1200": "door",
  "1201": "fish ",
  "1202": "kid",
  "1203": ". She was ",
  "1204": "up the ",
  "1205": "lock",
  "1206": "toys ",
  "1207": " about ",
  "1208": "brok",
  "1209": "ed it ",
  "1210": "noi",
  "1211": "smiled",
  "1212": "love ",
  "1213": "mag",
  "1214": ". The dog ",
  "1215": "yum",
  "1216": ".\" The ",
  "1217": "in her ",
  "1218": "Spot",
  "1219": "liked to play ",
  "1220": "ing to ",
  "1221": "to a ",
  "1222": "next ",
  "1223": "girl",
  "1224": "friend, ",
  "1225": "car ",
  "1226": "great ",
  "1227": "inside",
  "1228": "dra",
  "1229": "look ",
  "1230": "still ",
  "1231": "lived in a ",
  "1232": "fter ",
  "1233": "sky",
  "1234": "things",
  "1235": "proud ",
  "1236": "t of ",
  "1237": " hom",
  "1238": "win",
  "1239": "ous ",
  "1240": "I'm ",
  "1241": "time",
  "1242": "ss ",
  "1243": "Anna",
  "1244": " all day",
  "1245": ". When ",
  "1246": "met",
  "1247": "new",
  "1248": "ow, ",
  "1249": "cha",
  "1250": "then, ",
  "1251": "em",
  "1252": "over",
  "1253": "that he ",
  "1254": "said, \"Yes, ",
  "1255": "happily ",
  "1256": "no ",
  "1257": "ddenly, ",
  "1258": "she was ",
  "1259": "they all ",
  "1260": "! The ",
  "1261": "ed a",
  "1262": "er mom ",
  "1263": "ght ",
  "1264": "itch",
  "1265": ". They are ",
  "1266": "better",
  "1267": "ing, ",
  "1268": "plan",
  "1269": "flew ",
  "1270": "cat named ",
  "1271": "ru",
  "1272": "hed",
  "1273": "Do ",
  "1274": ". N",
  "1275": ". Spot ",
  "1276": "mon",
  "1277": "wanted to help",
  "1278": "see the ",
  "1279": "had an idea",
  "1280": "people ",
  "1281": "tir",
  "1282": ", there was a ",
  "1283": ".\nAs ",
  "1284": "It ",
  "1285": "fish",
  "1286": "stick",
  "1287": "how ",
  "1288": "oud",
  "1289": "animal",
  "1290": "No, ",
  "1291": "loved ",
  "1292": "thought",
  "1293": "always ",
  "1294": "sta",
  "1295": "friends and ",
  "1296": "qui",
  "1297": " an ",
  "1298": "thre",
  "1299": "reach",
  "1300": "ing a ",
  "1301": "couldn't ",
  "1302": "ey",
  "1303": "an to ",
  "1304": "food ",
  "1305": "wha",
  "1306": " hou",
  "1307": "being ",
  "1308": "imp",
  "1309": "nodd",
  "1310": "fix",
  "1311": "clos",
  "1312": "sun ",
  "1313": "gam",
  "1314": "bit ",
  "1315": "together and ",
  "1316": "forest",
  "1317": "tin",
  "1318": ". M",
  "1319": "eat",
  "1320": "pt ",
  "1321": "ort",
  "1322": "excited",
  "1323": "garden",
  "1324": "cla",
  "1325": "gry",
  "1326": "little bird ",
  "1327": "ppl",
  "1328": "â",
  "1329": "cri",
  "1330": "played with the ",
  "1331": "had to ",
  "1332": "Joh",
  "1333": "ati",
  "1334": "rabb",
  "1335": "yell",
  "1336": "bri",
  "1337": " after",
  "1338": "girl named ",
  "1339": "â",
  "1340": "ind",
  "1341": "tou",
  "1342": "time ",
  "1343": "food",
  "1344": "befor",
  "1345": "Look",
  "1346": "outside",
  "1347": "back to ",
  "1348": "looked at the ",
  "1349": "are ",
  "1350": "gra",
  "1351": "Do you ",
  "1352": "pain",
  "1353": "dr",
  "1354": ". It is ",
  "1355": "clean",
  "1356": "house ",
  "1357": "dad",
  "1358": "shed ",
  "1359": "careful",
  "1360": "were very ",
  "1361": "I am ",
  "1362": "Hi",
  "1363": "sle",
  "1364": "tter ",
  "1365": "need",
  "1366": "bro",
  "1367": "his mom ",
  "1368": "lot of ",
  "1369": "sat ",
  "1370": "down ",
  "1371": "was sad",
  "1372": ". From that day on, ",
  "1373": "ty",
  "1374": "off",
  "1375": "Can I ",
  "1376": "ess",
  "1377": "blue ",
  "1378": "hid",
  "1379": "s to ",
  "1380": "town",
  "1381": "near the ",
  "1382": "wind ",
  "1383": "ant ",
  "1384": "ed, ",
  "1385": "fav",
  "1386": "story ",
  "1387": "bug ",
  "1388": "our ",
  "1389": "doll",
  "1390": "lk ",
  "1391": "said. \"",
  "1392": "make a ",
  "1393": "spo",
  "1394": ". Su",
  "1395": "beautiful ",
  "1396": "ate ",
  "1397": ", there ",
  "1398": "irre",
  "1399": "jumped ",
  "1400": "vent",
  "1401": "His ",
  "1402": "says, \"",
  "1403": "until ",
  "1404": "big and ",
  "1405": "mem",
  "1406": "lived happily ",
  "1407": "cake ",
  "1408": "play with the ",
  "1409": ". She wanted to ",
  "1410": "Kitty ",
  "1411": "e, but ",
  "1412": "squirre",
  "1413": "scared ",
  "1414": "So, ",
  "1415": "brea",
  "1416": ". Every ",
  "1417": "cry",
  "1418": "called ",
  "1419": "the best ",
  "1420": "two ",
  "1421": "day long",
  "1422": "? ",
  "1423": "gla",
  "1424": "bear ",
  "1425": "met a ",
  "1426": "had lots of ",
  "1427": "found a big ",
  "1428": "she",
  "1429": "magic ",
  "1430": "Amy ",
  "1431": "con",
  "1432": " all the ",
  "1433": "bun",
  "1434": "flo",
  "1435": "I will ",
  "1436": ". You are ",
  "1437": "cor",
  "1438": "surprised",
  "1439": "en the ",
  "1440": "everyone ",
  "1441": "tree and ",
  "1442": "try ",
  "1443": ", but she ",
  "1444": "kept ",
  "1445": "our",
  "1446": ".\n\nOnce upon a time, there was a little girl named ",
  "1447": "bad ",
  "1448": " ad",
  "1449": "opened the ",
  "1450": "had a big ",
  "1451": "block",
  "1452": "enjo",
  "1453": ". \nThe ",
  "1454": "Hell",
  "1455": "sunny ",
  "1456": "on the ground",
  "1457": "on his ",
  "1458": "sna",
  "1459": "sho",
  "1460": "kitch",
  "1461": " how ",
  "1462": "shiny ",
  "1463": "remem",
  "1464": "lived a ",
  "1465": "did not know ",
  "1466": "back to the ",
  "1467": "favor",
  "1468": "is a ",
  "1469": ".\"\nThe ",
  "1470": "Anna ",
  "1471": "strong",
  "1472": ". She said, \"",
  "1473": "fly ",
  "1474": "table",
  "1475": "came to ",
  "1476": "fly",
  "1477": "did not want to ",
  "1478": "much",
  "1479": "loud ",
  "1480": ". They both ",
  "1481": "y an",
  "1482": "try",
  "1483": "thought it ",
  "1484": "heard a ",
  "1485": "saf",
  "1486": "Don't ",
  "1487": "ily",
  "1488": "row",
  "1489": "vo",
  "1490": "for help",
  "1491": "out of the ",
  "1492": "What ",
  "1493": "favorite ",
  "1494": " away ",
  "1495": "curi",
  "1496": "moral ",
  "1497": "let's ",
  "1498": "you can ",
  "1499": "Fluff",
  "1500": "<|endoftext|>"
}