{
  "\u0000": 0,
  "\u0001": 1,
  "\u0002": 2,
  "\u0003": 3,
  "\u0004": 4,
  "\u0005": 5,
  "\u0006": 6,
  "\u0007": 7,
  "\b": 8,
  "\t": 9,
  "\n": 10,
  "\u000b": 11,
  "\f": 12,
  "\r": 13,
  "\u000e": 14,
  "\u000f": 15,
  "\u0010": 16,
  "\u0011": 17,
  "\u0012": 18,
  "\u0013": 19,
  "\u0014": 20,
  "\u0015": 21,
  "\u0016": 22,
  "\u0017": 23,
  "\u0018": 24,
  "\u0019": 25,
  "\u001a": 26,
  "\u001b": 27,
  "\u001c": 28,
  "\u001d": 29,
  "\u001e": 30,
  "\u001f": 31,
  "Ġ": 32,
  "!": 33,
  "\"": 34,
  "#": 35,
  "$": 36,
  "%": 37,
  "&": 38,
  "'": 39,
  "(": 40,
  ")": 41,
  "*": 42,
  "+": 43,
  ",": 44,
  "-": 45,
  ".": 46,
  "/": 47,
  "0": 48,
  "1": 49,
  "2": 50,
  "3": 51,
  "4": 52,
  "5": 53,
  "6": 54,
  "7": 55,
  "8": 56,
  "9": 57,
  ":": 58,
  ";": 59,
  "<": 60,
  "=": 61,
  ">": 62,
  "?": 63,
  "@": 64,
  "A": 65,
  "B": 66,
  "C": 67,
  "D": 68,
  "E": 69,
  "F": 70,
  "G": 71,
  "H": 72,
  "I": 73,
  "J": 74,
  "K": 75,
  "L": 76,
  "M": 77,
  "N": 78,
  "O": 79,
  "P": 80,
  "Q": 81,
  "R": 82,
  "S": 83,
  "T": 84,
  "U": 85,
  "V": 86,
  "W": 87,
  "X": 88,
  "Y": 89,
  "Z": 90,
  "[": 91,
  "\\": 92,
  "]": 93,
  "^": 94,
  "_": 95,
  "`": 96,
  "a": 97,
  "b": 98,
  "c": 99,
  "d": 100,
  "e": 101,
  "f": 102,
  "g": 103,
  "h": 104,
  "i": 105,
  "j": 106,
  "k": 107,
  "l": 108,
  "m": 109,
  "n": 110,
  "o": 111,
  "p": 112,
  "q": 113,
  "r": 114,
  "s": 115,
  "t": 116,
  "u": 117,
  "v": 118,
  "w": 119,
  "x": 120,
  "y": 121,
  "z": 122,
  "{": 123,
  "|": 124,
  "}": 125,
  "~": 126,
  "": 127,
  "": 128,
  "": 129,
  "": 130,
  "": 131,
  "": 132,
  "": 133,
  "": 134,
  "": 135,
  "": 136,
  "": 137,
  "": 138,
  "": 139,
  "": 140,
  "": 141,
  "": 142,
  "": 143,
  "": 144,
  "": 145,
  "": 146,
  "": 147,
  "": 148,
  "": 149,
  "": 150,
  "": 151,
  "": 152,
  "": 153,
  "": 154,
  "": 155,
  "": 156,
  "": 157,
  "": 158,
  "": 159,
  " ": 160,
  "¡": 161,
  "¢": 162,
  "£": 163,
  "¤": 164,
  "¥": 165,
  "¦": 166,
  "§": 167,
  "¨": 168,
  "©": 169,
  "ª": 170,
  "«": 171,
  "¬": 172,
  "­": 173,
  "®": 174,
  "¯": 175,
  "°": 176,
  "±": 177,
  "²": 178,
  "³": 179,
  "´": 180,
  "µ": 181,
  "¶": 182,
  "·": 183,
  "¸": 184,
  "¹": 185,
  "º": 186,
  "»": 187,
  "¼": 188,
  "½": 189,
  "¾": 190,
  "¿": 191,
  "À": 192,
  "Á": 193,
  "Â": 194,
  "Ã": 195,
  "Ä": 196,
  "Å": 197,
  "Æ": 198,
  "Ç": 199,
  "È": 200,
  "É": 201,
  "Ê": 202,
  "Ë": 203,
  "Ì": 204,
  "Í": 205,
  "Î": 206,
  "Ï": 207,
  "Ð": 208,
  "Ñ": 209,
  "Ò": 210,
  "Ó": 211,
  "Ô": 212,
  "Õ": 213,
  "Ö": 214,
  "×": 215,
  "Ø": 216,
  "Ù": 217,
  "Ú": 218,
  "Û": 219,
  "Ü": 220,
  "Ý": 221,
  "Þ": 222,
  "ß": 223,
  "à": 224,
  "á": 225,
  "â": 226,
  "ã": 227,
  "ä": 228,
  "å": 229,
  "æ": 230,
  "ç": 231,
  "è": 232,
  "é": 233,
  "ê": 234,
  "ë": 235,
  "ì": 236,
  "í": 237,
  "î": 238,
  "ï": 239,
  "ð": 240,
  "ñ": 241,
  "ò": 242,
  "ó": 243,
  "ô": 244,
  "õ": 245,
  "ö": 246,
  "÷": 247,
  "ø": 248,
  "ù": 249,
  "ú": 250,
  "û": 251,
  "ü": 252,
  "ý": 253,
  "þ": 254,
  "ÿ": 255,
  "eĠ": 256,
  "dĠ": 257,
  "th": 258,
  "Ġa": 259,
  ".Ġ": 260,
  "tĠ": 261,
  "yĠ": 262,
  "sĠ": 263,
  "ndĠ": 264,
  "to": 265,
  "er": 266,
  "edĠ": 267,
  "theĠ": 268,
  ",Ġ": 269,
  "wa": 270,
  "in": 271,
  "heĠ": 272,
  "toĠ": 273,
  "ou": 274,
  "ĠandĠ": 275,
  "en": 276,
  "ha": 277,
  ".ĠT": 278,
  "ĠaĠ": 279,
  "om": 280,
  "sa": 281,
  "ar": 282,
  "ĠtheĠ": 283,
  "on": 284,
  "he": 285,
  ".\n": 286,
  "im": 287,
  "ll": 288,
  "gĠ": 289,
  "wasĠ": 290,
  "an": 291,
  "or": 292,
  "erĠ": 293,
  "it": 294,
  "ay": 295,
  "id": 296,
  "ir": 297,
  "isĠ": 298,
  "re": 299,
  "pl": 300,
  "il": 301,
  "edĠtoĠ": 302,
  "wi": 303,
  "am": 304,
  "the": 305,
  "lo": 306,
  "st": 307,
  "ri": 308,
  "aĠ": 309,
  "andĠ": 310,
  ".ĠH": 311,
  ".ĠS": 312,
  "oĠ": 313,
  "heyĠ": 314,
  ".ĠHeĠ": 315,
  "Ġh": 316,
  "no": 317,
  "atĠ": 318,
  "ereĠ": 319,
  "On": 320,
  "with": 321,
  "un": 322,
  ".ĠTheyĠ": 323,
  "ingĠ": 324,
  "pp": 325,
  "ver": 326,
  ".ĠTheĠ": 327,
  "ck": 328,
  "li": 329,
  "\"Ġ": 330,
  "bi": 331,
  "llĠ": 332,
  "le": 333,
  ".ĠSheĠ": 334,
  ",Ġ\"": 335,
  "day": 336,
  "utĠ": 337,
  "omĠ": 338,
  "be": 339,
  "itĠ": 340,
  "wĠ": 341,
  "ok": 342,
  "said": 343,
  "you": 344,
  "ing": 345,
  "leĠ": 346,
  "bo": 347,
  "ma": 348,
  "happ": 349,
  "ed": 350,
  "do": 351,
  "ldĠ": 352,
  "ba": 353,
  "up": 354,
  "end": 355,
  "imĠ": 356,
  "of": 357,
  "gh": 358,
  "fri": 359,
  "ne": 360,
  "ayĠ": 361,
  "sh": 362,
  "veryĠ": 363,
  "anĠ": 364,
  "ch": 365,
  "se": 366,
  "for": 367,
  "lĠ": 368,
  "wan": 369,
  "enĠ": 370,
  "ceĠ": 371,
  "was": 372,
  "hadĠ": 373,
  "itt": 374,
  "bigĠ": 375,
  "said,Ġ\"": 376,
  "friend": 377,
  "Lil": 378,
  "e,Ġ": 379,
  "veĠ": 380,
  "ro": 381,
  ".\n\n": 382,
  "theyĠ": 383,
  "tedĠtoĠ": 384,
  "notĠ": 385,
  "play": 386,
  "OneĠ": 387,
  ".ĠI": 388,
  "ge": 389,
  "ittleĠ": 390,
  "littleĠ": 391,
  "tim": 392,
  "hisĠ": 393,
  "wasĠaĠ": 394,
  "keĠ": 395,
  "'sĠ": 396,
  "thatĠ": 397,
  "es": 398,
  "at": 399,
  "nam": 400,
  "OneĠday": 401,
  "sheĠ": 402,
  "ouldĠ": 403,
  "inĠtheĠ": 404,
  "idĠ": 405,
  "car": 406,
  "namedĠ": 407,
  "herĠ": 408,
  "bir": 409,
  "yĠandĠ": 410,
  "TheĠ": 411,
  "thereĠ": 412,
  "ther": 413,
  "toĠtheĠ": 414,
  "ra": 415,
  "edĠandĠ": 416,
  "wereĠ": 417,
  "fe": 418,
  "onĠaĠ": 419,
  "entĠ": 420,
  "soĠ": 421,
  "wh": 422,
  "saw": 423,
  "\"\n": 424,
  "playĠ": 425,
  "go": 426,
  ",ĠandĠ": 427,
  "hel": 428,
  "wantedĠtoĠ": 429,
  "youĠ": 430,
  "reĠ": 431,
  "butĠ": 432,
  "OnceĠ": 433,
  "help": 434,
  "look": 435,
  "wentĠ": 436,
  "seĠ": 437,
  "IĠ": 438,
  "uponĠaĠ": 439,
  "OnceĠuponĠaĠ": 440,
  "OnceĠuponĠaĠtim": 441,
  "edĠtheĠ": 442,
  "ĠhisĠ": 443,
  "yĠa": 444,
  "oundĠ": 445,
  "withĠ": 446,
  "!Ġ": 447,
  "thereĠwasĠaĠ": 448,
  "fi": 449,
  "ta": 450,
  "sk": 451,
  "po": 452,
  "fun": 453,
  "la": 454,
  "ca": 455,
  "TimĠ": 456,
  ".ĠItĠ": 457,
  "OnceĠuponĠaĠtime,Ġ": 458,
  "ea": 459,
  "OneĠday,Ġ": 460,
  "ur": 461,
  "toge": 462,
  "sĠandĠ": 463,
  ",ĠbutĠ": 464,
  "birdĠ": 465,
  "LilyĠ": 466,
  "som": 467,
  "beĠ": 468,
  "ĠherĠ": 469,
  "ofĠ": 470,
  "Tim": 471,
  "!\"Ġ": 472,
  "tre": 473,
  "myĠ": 474,
  "kĠ": 475,
  "stĠ": 476,
  "mĠ": 477,
  "ckĠ": 478,
  "par": 479,
  "wasĠveryĠ": 480,
  "gir": 481,
  "ameĠ": 482,
  "irĠ": 483,
  ",ĠaĠ": 484,
  "et": 485,
  "sm": 486,
  "wn": 487,
  "momĠ": 488,
  "ec": 489,
  ".\n\nOnceĠuponĠaĠtime,Ġ": 490,
  "cameĠ": 491,
  "mom": 492,
  "co": 493,
  "sawĠaĠ": 494,
  "newĠ": 495,
  "ga": 496,
  "fu": 497,
  ".ĠB": 498,
  "tĠtheĠ": 499,
  "tt": 500,
  "theirĠ": 501,
  "lov": 502,
  "eĠandĠ": 503,
  "onĠtheĠ": 504,
  "ic": 505,
  "y,Ġ": 506,
  "Ma": 507,
  "chĠ": 508,
  "friends": 509,
  "forĠ": 510,
  "together": 511,
  "Max": 512,
  "didĠ": 513,
  "'tĠ": 514,
  ".\"Ġ": 515,
  "girlĠ": 516,
  "is": 517,
  "playedĠ": 518,
  "ough": 519,
  "haveĠ": 520,
  "um": 521,
  "hadĠaĠ": 522,
  "smil": 523,
  ".ĠA": 524,
  "tĠtoĠ": 525,
  "couldĠ": 526,
  "fa": 527,
  ".\"\n": 528,
  ".\n\"": 529,
  "happy": 530,
  "canĠ": 531,
  ".ĠTimĠ": 532,
  "esĠ": 533,
  "sid": 534,
  "ueĠ": 535,
  "ex": 536,
  "bu": 537,
  "foundĠ": 538,
  "mor": 539,
  "lookedĠ": 540,
  "lik": 541,
  "way": 542,
  "star": 543,
  "ow": 544,
  "Tom": 545,
  "sto": 546,
  "happyĠ": 547,
  ".\n\nOnceĠuponĠaĠtime,ĠthereĠwasĠaĠ": 548,
  "didĠnotĠ": 549,
  "boyĠ": 550,
  "inĠ": 551,
  "nd": 552,
  "fr": 553,
  "TomĠ": 554,
  "fel": 555,
  "saidĠ": 556,
  "al": 557,
  "toy": 558,
  "dogĠ": 559,
  "onĠ": 560,
  "wouldĠ": 561,
  "hatĠ": 562,
  "some": 563,
  "out": 564,
  "dayĠ": 565,
  "You": 566,
  "sp": 567,
  "ball": 568,
  "therĠ": 569,
  "rea": 570,
  "odĠ": 571,
  "el": 572,
  "wor": 573,
  "Ġan": 574,
  "ke": 575,
  "ho": 576,
  "likeĠ": 577,
  ".Ġ\"": 578,
  "ter": 579,
  "lk": 580,
  "catĠ": 581,
  "oneĠ": 582,
  "withĠtheĠ": 583,
  "thingĠ": 584,
  "pĠ": 585,
  "?\"Ġ": 586,
  "feltĠ": 587,
  "o,Ġ": 588,
  "rĠ": 589,
  "vedĠ": 590,
  "pi": 591,
  "ent": 592,
  "Sam": 593,
  "gr": 594,
  ".\nTheĠ": 595,
  "big": 596,
  "makeĠ": 597,
  "scar": 598,
  "sma": 599,
  "mu": 600,
  "me": 601,
  "dd": 602,
  "wasĠsoĠ": 603,
  "deĠ": 604,
  "thing": 605,
  "lovedĠtoĠ": 606,
  "sha": 607,
  "though": 608,
  "Wh": 609,
  "littleĠgirlĠ": 610,
  "OneĠday,ĠaĠ": 611,
  "inĠaĠ": 612,
  ".ĠOneĠday,Ġ": 613,
  "ofĠtheĠ": 614,
  "goĠ": 615,
  "igh": 616,
  "park": 617,
  ".ĠButĠ": 618,
  ".\n\n\n": 619,
  "startedĠtoĠ": 620,
  "ug": 621,
  "likedĠtoĠ": 622,
  "outĠ": 623,
  "seeĠ": 624,
  "man": 625,
  ",ĠtheĠ": 626,
  "madeĠ": 627,
  "ugh": 628,
  "box": 629,
  "MaxĠ": 630,
  "fo": 631,
  "findĠ": 632,
  "tri": 633,
  "arn": 634,
  "ell": 635,
  "pa": 636,
  "com": 637,
  "Mi": 638,
  "withĠhisĠ": 639,
  "down": 640,
  "itĠwasĠ": 641,
  "too": 642,
  "friendsĠ": 643,
  "wantĠtoĠ": 644,
  "kno": 645,
  "took": 646,
  ".\nOneĠday,Ġ": 647,
  "TheyĠ": 648,
  "funĠ": 649,
  "tr": 650,
  "ĠareĠ": 651,
  "them": 652,
  "somethingĠ": 653,
  "cat": 654,
  "gain": 655,
  "say": 656,
  "ob": 657,
  "helpĠ": 658,
  "putĠ": 659,
  "op": 660,
  ".\nA": 661,
  "sun": 662,
  "uc": 663,
  "learn": 664,
  "pu": 665,
  "lyĠ": 666,
  "fĠ": 667,
  "livedĠ": 668,
  "lon": 669,
  "sad": 670,
  "walk": 671,
  "gre": 672,
  "pre": 673,
  "foundĠaĠ": 674,
  "all": 675,
  "useĠ": 676,
  "toyĠ": 677,
  "sawĠ": 678,
  "qu": 679,
  "willĠ": 680,
  "di": 681,
  "boyĠnamedĠ": 682,
  "ever": 683,
  "ĠandĠtheĠ": 684,
  "Lily": 685,
  ".Ġ\n": 686,
  "heyĠa": 687,
  "tedĠ": 688,
  "backĠ": 689,
  "bird": 690,
  "od": 691,
  "redĠ": 692,
  "pr": 693,
  "goodĠ": 694,
  "n'tĠ": 695,
  "fulĠ": 696,
  "verĠ": 697,
  "gi": 698,
  "br": 699,
  "thĠ": 700,
  "sw": 701,
  "happyĠandĠ": 702,
  "ce": 703,
  "Luc": 704,
  "ld": 705,
  "her": 706,
  "yourĠ": 707,
  "tree": 708,
  "someĠ": 709,
  "other": 710,
  "him": 711,
  "Spo": 712,
  "Mom": 713,
  "na": 714,
  "low": 715,
  "hom": 716,
  "laugh": 717,
  ",\"Ġ": 718,
  ".ĠTheyĠa": 719,
  "pe": 720,
  "smiledĠandĠ": 721,
  "owĠ": 722,
  "alĠ": 723,
  "tsĠ": 724,
  ".\n\nOneĠday,ĠaĠ": 725,
  "dĠandĠ": 726,
  "ss": 727,
  "der": 728,
  "en,Ġ": 729,
  "whatĠ": 730,
  "whenĠ": 731,
  "themĠ": 732,
  "han": 733,
  "edĠherĠ": 734,
  "iceĠ": 735,
  "ound": 736,
  "weĠ": 737,
  "playingĠ": 738,
  "dog": 739,
  "BenĠ": 740,
  "!\"\n": 741,
  "YouĠ": 742,
  "sti": 743,
  "ask": 744,
  "da": 745,
  "arĠ": 746,
  ".ĠIĠ": 747,
  "back": 748,
  "dec": 749,
  "smallĠ": 750,
  "whoĠ": 751,
  "Su": 752,
  "ĠallĠ": 753,
  "tooĠ": 754,
  "es,Ġ": 755,
  "ballĠ": 756,
  "cit": 757,
  "littleĠgirlĠnamedĠ": 758,
  "sawĠaĠbigĠ": 759,
  "ut": 760,
  "knewĠ": 761,
  "wat": 762,
  "mo": 763,
  "SueĠ": 764,
  "nyĠ": 765,
  "t'sĠ": 766,
  "â": 767,
  "excit": 768,
  "thoughtĠ": 769,
  "playĠwithĠ": 770,
  "waysĠ": 771,
  "manyĠ": 772,
  "clo": 773,
  "decid": 774,
  "withĠherĠ": 775,
  "Ġar": 776,
  "ĠaĠbigĠ": 777,
  "cou": 778,
  "wentĠtoĠtheĠ": 779,
  "becameĠ": 780,
  "causeĠ": 781,
  "outsid": 782,
  "big,Ġ": 783,
  "WeĠ": 784,
  "ump": 785,
  "sor": 786,
  "shĠ": 787,
  "ryĠ": 788,
  ".ĠTheyĠwereĠ": 789,
  "ff": 790,
  "edĠhisĠ": 791,
  "cl": 792,
  "hou": 793,
  "becauseĠ": 794,
  "room": 795,
  "ĠandĠsaid,Ġ\"": 796,
  "ju": 797,
  "bothĠ": 798,
  "ble": 799,
  "says": 800,
  "eĠtheĠ": 801,
  "ran": 802,
  "ranĠ": 803,
  ".ĠTomĠ": 804,
  "ry": 805,
  "from": 806,
  "bestĠ": 807,
  "hear": 808,
  "gotĠ": 809,
  "endĠ": 810,
  "lea": 811,
  "on,Ġ": 812,
  "triedĠtoĠ": 813,
  "ill": 814,
  "on'tĠ": 815,
  "ard": 816,
  "doĠ": 817,
  "one": 818,
  "run": 819,
  "sur": 820,
  "pri": 821,
  "day,Ġ": 822,
  "edĠthatĠ": 823,
  "ButĠ": 824,
  "LilyĠandĠ": 825,
  "toldĠ": 826,
  "eachĠ": 827,
  "care": 828,
  "MiaĠ": 829,
  "prett": 830,
  "Ben": 831,
  "eĠtoĠ": 832,
  "decidedĠtoĠ": 833,
  "Ġab": 834,
  "sawĠtheĠ": 835,
  "insid": 836,
  "so": 837,
  ".ĠF": 838,
  "gaveĠ": 839,
  "indĠ": 840,
  "forĠaĠ": 841,
  "Let": 842,
  "pla": 843,
  ".ĠTheĠbirdĠ": 844,
  "Ġask": 845,
  "oudĠ": 846,
  "SamĠ": 847,
  "manĠ": 848,
  ".ĠLilyĠ": 849,
  "surpri": 850,
  "upĠ": 851,
  "lu": 852,
  "open": 853,
  "tĠandĠ": 854,
  ".ĠAndĠ": 855,
  "byĠ": 856,
  "moreĠ": 857,
  "har": 858,
  "rab": 859,
  "su": 860,
  "Let'sĠ": 861,
  "can": 862,
  "flow": 863,
  "An": 864,
  "ful": 865,
  "hug": 866,
  "cle": 867,
  "ve": 868,
  "did": 869,
  "than": 870,
  "Yes,Ġ": 871,
  "happyĠtoĠ": 872,
  "jump": 873,
  "wasĠnotĠ": 874,
  "ep": 875,
  "Ġaway": 876,
  "cre": 877,
  "ly": 878,
  "tur": 879,
  "show": 880,
  "WhenĠ": 881,
  "takeĠ": 882,
  "lookedĠatĠ": 883,
  "everyĠ": 884,
  "shin": 885,
  "omĠthatĠ": 886,
  "s,Ġ": 887,
  "not": 888,
  "nĠ": 889,
  ".ĠE": 890,
  "happen": 891,
  "tter": 892,
  "Ġal": 893,
  "Ġagain": 894,
  "str": 895,
  "Bob": 896,
  "littleĠboyĠnamedĠ": 897,
  "CanĠ": 898,
  "knowĠ": 899,
  "hankĠ": 900,
  "more": 901,
  "LucyĠ": 902,
  "si": 903,
  "Ġall": 904,
  "Sar": 905,
  "thisĠ": 906,
  "che": 907,
  "jo": 908,
  "iteĠ": 909,
  "fle": 910,
  "itsĠ": 911,
  "otherĠ": 912,
  "omĠthatĠdayĠ": 913,
  "spec": 914,
  "wayĠ": 915,
  "every": 916,
  "ev": 917,
  "togetherĠ": 918,
  "theyĠa": 919,
  "?\"\n": 920,
  "getĠ": 921,
  "my": 922,
  "list": 923,
  "fast": 924,
  "bea": 925,
  "himĠ": 926,
  ".ĠItĠwasĠ": 927,
  "theyĠwereĠ": 928,
  "ingĠandĠ": 929,
  "forĠtheĠ": 930,
  "war": 931,
  "dyĠ": 932,
  "ong": 933,
  "scared": 934,
  "ilyĠ": 935,
  "ppedĠ": 936,
  "water": 937,
  "withĠaĠ": 938,
  "wentĠtoĠ": 939,
  "under": 940,
  "imal": 941,
  ",ĠbutĠheĠ": 942,
  "we": 943,
  "said,Ġ\"IĠ": 944,
  "dan": 945,
  "s.ĠTheyĠ": 946,
  "oldĠ": 947,
  "couldĠnotĠ": 948,
  "de": 949,
  "work": 950,
  "you,Ġ": 951,
  "tu": 952,
  "didn'tĠ": 953,
  "speci": 954,
  "ThankĠ": 955,
  "ingĠtheĠ": 956,
  "per": 957,
  ".ĠTh": 958,
  "treeĠ": 959,
  "ckedĠ": 960,
  "opl": 961,
  "fter": 962,
  "thingsĠ": 963,
  "meĠ": 964,
  "ght": 965,
  "HeĠ": 966,
  "idea": 967,
  "eachĠother": 968,
  ".ĠYouĠ": 969,
  "heardĠ": 970,
  ".ĠHeĠwantedĠtoĠ": 971,
  "geĠ": 972,
  "Ġhim": 973,
  "'sĠmomĠ": 974,
  "tsĠofĠ": 975,
  "everyĠday": 976,
  "ĠatĠtheĠ": 977,
  "esĠandĠ": 978,
  "happened": 979,
  ",ĠheĠ": 980,
  "near": 981,
  "long": 982,
  "rock": 983,
  ".ĠWeĠ": 984,
  "thank": 985,
  "orĠ": 986,
  "ifĠ": 987,
  "dre": 988,
  "lotsĠofĠ": 989,
  "flower": 990,
  "dden": 991,
  "friendĠ": 992,
  "ĠaroundĠ": 993,
  "niceĠ": 994,
  "TimĠandĠ": 995,
  "house": 996,
  "lledĠ": 997,
  "parkĠ": 998,
  "ileĠ": 999,
  "intoĠtheĠ": 1000,
  "ed,Ġ\"": 1001,
  "bleĠ": 1002,
  "small": 1003,
  "exp": 1004,
  "neverĠ": 1005,
  "hand": 1006,
  "ft": 1007,
  "bl": 1008,
  "us": 1009,
  "fromĠtheĠ": 1010,
  "allĠ": 1011,
  ".ĠTheyĠplayedĠ": 1012,
  "mou": 1013,
  "toys": 1014,
  "omĠthatĠdayĠon,Ġ": 1015,
  "justĠ": 1016,
  "hea": 1017,
  "giveĠ": 1018,
  "est": 1019,
  "sadĠandĠ": 1020,
  "Ġher": 1021,
  "kindĠ": 1022,
  "watch": 1023,
  "SpotĠ": 1024,
  "eatĠ": 1025,
  "turn": 1026,
  "inĠtheĠpark": 1027,
  "ymore": 1028,
  "vingĠ": 1029,
  "prettyĠ": 1030,
  "peopl": 1031,
  "laughedĠandĠ": 1032,
  "etĠ": 1033,
  "fam": 1034,
  "col": 1035,
  "uck": 1036,
  "Jo": 1037,
  ",ĠandĠtheĠ": 1038,
  ".ĠTim": 1039,
  "YouĠareĠ": 1040,
  "smiledĠandĠsaid,Ġ\"": 1041,
  "hat": 1042,
  "ĠwasĠ": 1043,
  "surpris": 1044,
  "hur": 1045,
  "TomĠandĠ": 1046,
  "MomĠ": 1047,
  "fin": 1048,
  "Kitt": 1049,
  ".\n\nOnceĠuponĠaĠtime,ĠinĠaĠ": 1050,
  "fir": 1051,
  "don'tĠ": 1052,
  "tw": 1053,
  "clim": 1054,
  "ilĠ": 1055,
  "fro": 1056,
  "SheĠ": 1057,
  "book": 1058,
  ".ĠSueĠ": 1059,
  "elĠ": 1060,
  ".ĠTheyĠallĠ": 1061,
  "upĠandĠ": 1062,
  "sadĠ": 1063,
  ".\n\n\n\n": 1064,
  "tookĠ": 1065,
  "ice": 1066,
  "expec": 1067,
  "home": 1068,
  "ber": 1069,
  "cu": 1070,
  "toĠbeĠ": 1071,
  "thenĠ": 1072,
  "'mĠ": 1073,
  ".ĠTheĠcatĠ": 1074,
  "learnedĠthatĠ": 1075,
  "sĠtheĠ": 1076,
  "gard": 1077,
  "squ": 1078,
  "Mia": 1079,
  "climb": 1080,
  "unt": 1081,
  "!\n": 1082,
  "allyĠ": 1083,
  "and": 1084,
  "gg": 1085,
  "madeĠaĠ": 1086,
  "high": 1087,
  ".ĠMaxĠ": 1088,
  "toĠplayĠ": 1089,
  "Da": 1090,
  "gu": 1091,
  "wnĠ": 1092,
  "ti": 1093,
  "lovedĠtoĠplayĠ": 1094,
  "potĠ": 1095,
  "haveĠaĠ": 1096,
  "could": 1097,
  "far": 1098,
  ".ĠHisĠ": 1099,
  "evenĠ": 1100,
  ".ĠSo,Ġ": 1101,
  "s.ĠHeĠ": 1102,
  "unexpec": 1103,
  ".\nTheyĠ": 1104,
  "epĠ": 1105,
  "lid": 1106,
  "sel": 1107,
  "nex": 1108,
  ".ĠFr": 1109,
  "toĠhisĠ": 1110,
  ",ĠtheyĠ": 1111,
  ".ĠItĠwasĠaĠ": 1112,
  "IĠa": 1113,
  "ink": 1114,
  "ook": 1115,
  "Sue": 1116,
  "now": 1117,
  "whereĠ": 1118,
  "dogĠnamedĠ": 1119,
  "Ja": 1120,
  "pic": 1121,
  "s.ĠSheĠ": 1122,
  ",ĠsoĠ": 1123,
  "shareĠ": 1124,
  "unexpectedĠ": 1125,
  "fromĠ": 1126,
  "specialĠ": 1127,
  "pickedĠ": 1128,
  "ĠatĠ": 1129,
  "edĠaĠ": 1130,
  "llyĠ": 1131,
  "Tim.ĠTimĠ": 1132,
  "dadĠ": 1133,
  "Sara": 1134,
  "muchĠ": 1135,
  "outĠtheĠ": 1136,
  "ear": 1137,
  "mak": 1138,
  "tra": 1139,
  "ĠalwaysĠ": 1140,
  "ry,Ġ": 1141,
  ".ĠHeĠwasĠ": 1142,
  "amĠ": 1143,
  "comeĠ": 1144,
  "itĠandĠ": 1145,
  ",ĠandĠtheyĠ": 1146,
  "slid": 1147,
  "shouldĠ": 1148,
  "ground": 1149,
  "heĠwasĠ": 1150,
  "sof": 1151,
  "zz": 1152,
  "tĠaĠ": 1153,
  "ThankĠyou,Ġ": 1154,
  "by": 1155,
  "hadĠanĠ": 1156,
  "good": 1157,
  "color": 1158,
  "ight": 1159,
  "talk": 1160,
  "inkĠ": 1161,
  "listen": 1162,
  ".\nTimĠ": 1163,
  ".\nButĠ": 1164,
  "ĠasĠ": 1165,
  "somethingĠunexpectedĠ": 1166,
  "beaut": 1167,
  "sĠaĠ": 1168,
  "that": 1169,
  "ly,Ġ": 1170,
  "aroundĠ": 1171,
  "longĠ": 1172,
  "walkedĠ": 1173,
  "somethingĠunexpectedĠhappened": 1174,
  "luff": 1175,
  "erĠandĠ": 1176,
  "cook": 1177,
  "feel": 1178,
  "uckĠ": 1179,
  "feelĠ": 1180,
  "bra": 1181,
  "tookĠtheĠ": 1182,
  "inĠhisĠ": 1183,
  "boxĠ": 1184,
  "know": 1185,
  "icĠ": 1186,
  "beauti": 1187,
  "hugg": 1188,
  "putĠtheĠ": 1189,
  "shar": 1190,
  "pictu": 1191,
  "naĠ": 1192,
  "momĠandĠ": 1193,
  "OnceĠuponĠaĠtime,ĠthereĠwasĠaĠ": 1194,
  "wasĠveryĠhappy": 1195,
  "ark": 1196,
  ".\nT": 1197,
  "ol": 1198,
  ".ĠIn": 1199,
  "door": 1200,
  "fishĠ": 1201,
  "kid": 1202,
  ".ĠSheĠwasĠ": 1203,
  "upĠtheĠ": 1204,
  "lock": 1205,
  "toysĠ": 1206,
  "ĠaboutĠ": 1207,
  "brok": 1208,
  "edĠitĠ": 1209,
  "noi": 1210,
  "smiled": 1211,
  "loveĠ": 1212,
  "mag": 1213,
  ".ĠTheĠdogĠ": 1214,
  "yum": 1215,
  ".\"ĠTheĠ": 1216,
  "inĠherĠ": 1217,
  "Spot": 1218,
  "likedĠtoĠplayĠ": 1219,
  "ingĠtoĠ": 1220,
  "toĠaĠ": 1221,
  "nextĠ": 1222,
  "girl": 1223,
  "friend,Ġ": 1224,
  "carĠ": 1225,
  "greatĠ": 1226,
  "inside": 1227,
  "dra": 1228,
  "lookĠ": 1229,
  "stillĠ": 1230,
  "livedĠinĠaĠ": 1231,
  "fterĠ": 1232,
  "sky": 1233,
  "things": 1234,
  "proudĠ": 1235,
  "tĠofĠ": 1236,
  "Ġhom": 1237,
  "win": 1238,
  "ousĠ": 1239,
  "I'mĠ": 1240,
  "time": 1241,
  "ssĠ": 1242,
  "Anna": 1243,
  "ĠallĠday": 1244,
  ".ĠWhenĠ": 1245,
  "met": 1246,
  "new": 1247,
  "ow,Ġ": 1248,
  "cha": 1249,
  "then,Ġ": 1250,
  "em": 1251,
  "over": 1252,
  "thatĠheĠ": 1253,
  "said,Ġ\"Yes,Ġ": 1254,
  "happilyĠ": 1255,
  "noĠ": 1256,
  "ddenly,Ġ": 1257,
  "sheĠwasĠ": 1258,
  "theyĠallĠ": 1259,
  "!ĠTheĠ": 1260,
  "edĠa": 1261,
  "erĠmomĠ": 1262,
  "ghtĠ": 1263,
  "itch": 1264,
  ".ĠTheyĠareĠ": 1265,
  "better": 1266,
  "ing,Ġ": 1267,
  "plan": 1268,
  "flewĠ": 1269,
  "catĠnamedĠ": 1270,
  "ru": 1271,
  "hed": 1272,
  "DoĠ": 1273,
  ".ĠN": 1274,
  ".ĠSpotĠ": 1275,
  "mon": 1276,
  "wantedĠtoĠhelp": 1277,
  "seeĠtheĠ": 1278,
  "hadĠanĠidea": 1279,
  "peopleĠ": 1280,
  "tir": 1281,
  ",ĠthereĠwasĠaĠ": 1282,
  ".\nAsĠ": 1283,
  "ItĠ": 1284,
  "fish": 1285,
  "stick": 1286,
  "howĠ": 1287,
  "oud": 1288,
  "animal": 1289,
  "No,Ġ": 1290,
  "lovedĠ": 1291,
  "thought": 1292,
  "alwaysĠ": 1293,
  "sta": 1294,
  "friendsĠandĠ": 1295,
  "qui": 1296,
  "ĠanĠ": 1297,
  "thre": 1298,
  "reach": 1299,
  "ingĠaĠ": 1300,
  "couldn'tĠ": 1301,
  "ey": 1302,
  "anĠtoĠ": 1303,
  "foodĠ": 1304,
  "wha": 1305,
  "Ġhou": 1306,
  "beingĠ": 1307,
  "imp": 1308,
  "nodd": 1309,
  "fix": 1310,
  "clos": 1311,
  "sunĠ": 1312,
  "gam": 1313,
  "bitĠ": 1314,
  "togetherĠandĠ": 1315,
  "forest": 1316,
  "tin": 1317,
  ".ĠM": 1318,
  "eat": 1319,
  "ptĠ": 1320,
  "ort": 1321,
  "excited": 1322,
  "garden": 1323,
  "cla": 1324,
  "gry": 1325,
  "littleĠbirdĠ": 1326,
  "ppl": 1327,
  "â": 1328,
  "cri": 1329,
  "playedĠwithĠtheĠ": 1330,
  "hadĠtoĠ": 1331,
  "Joh": 1332,
  "ati": 1333,
  "rabb": 1334,
  "yell": 1335,
  "bri": 1336,
  "Ġafter": 1337,
  "girlĠnamedĠ": 1338,
  "â": 1339,
  "ind": 1340,
  "tou": 1341,
  "timeĠ": 1342,
  "food": 1343,
  "befor": 1344,
  "Look": 1345,
  "outside": 1346,
  "backĠtoĠ": 1347,
  "lookedĠatĠtheĠ": 1348,
  "areĠ": 1349,
  "gra": 1350,
  "DoĠyouĠ": 1351,
  "pain": 1352,
  "dr": 1353,
  ".ĠItĠisĠ": 1354,
  "clean": 1355,
  "houseĠ": 1356,
  "dad": 1357,
  "shedĠ": 1358,
  "careful": 1359,
  "wereĠveryĠ": 1360,
  "IĠamĠ": 1361,
  "Hi": 1362,
  "sle": 1363,
  "tterĠ": 1364,
  "need": 1365,
  "bro": 1366,
  "hisĠmomĠ": 1367,
  "lotĠofĠ": 1368,
  "satĠ": 1369,
  "downĠ": 1370,
  "wasĠsad": 1371,
  ".ĠFromĠthatĠdayĠon,Ġ": 1372,
  "ty": 1373,
  "off": 1374,
  "CanĠIĠ": 1375,
  "ess": 1376,
  "blueĠ": 1377,
  "hid": 1378,
  "sĠtoĠ": 1379,
  "town": 1380,
  "nearĠtheĠ": 1381,
  "windĠ": 1382,
  "antĠ": 1383,
  "ed,Ġ": 1384,
  "fav": 1385,
  "storyĠ": 1386,
  "bugĠ": 1387,
  "ourĠ": 1388,
  "doll": 1389,
  "lkĠ": 1390,
  "said.Ġ\"": 1391,
  "makeĠaĠ": 1392,
  "spo": 1393,
  ".ĠSu": 1394,
  "beautifulĠ": 1395,
  "ateĠ": 1396,
  ",ĠthereĠ": 1397,
  "irre": 1398,
  "jumpedĠ": 1399,
  "vent": 1400,
  "HisĠ": 1401,
  "says,Ġ\"": 1402,
  "untilĠ": 1403,
  "bigĠandĠ": 1404,
  "mem": 1405,
  "livedĠhappilyĠ": 1406,
  "cakeĠ": 1407,
  "playĠwithĠtheĠ": 1408,
  ".ĠSheĠwantedĠtoĠ": 1409,
  "KittyĠ": 1410,
  "e,ĠbutĠ": 1411,
  "squirre": 1412,
  "scaredĠ": 1413,
  "So,Ġ": 1414,
  "brea": 1415,
  ".ĠEveryĠ": 1416,
  "cry": 1417,
  "calledĠ": 1418,
  "theĠbestĠ": 1419,
  "twoĠ": 1420,
  "dayĠlong": 1421,
  "?Ġ": 1422,
  "gla": 1423,
  "bearĠ": 1424,
  "metĠaĠ": 1425,
  "hadĠlotsĠofĠ": 1426,
  "foundĠaĠbigĠ": 1427,
  "she": 1428,
  "magicĠ": 1429,
  "AmyĠ": 1430,
  "con": 1431,
  "ĠallĠtheĠ": 1432,
  "bun": 1433,
  "flo": 1434,
  "IĠwillĠ": 1435,
  ".ĠYouĠareĠ": 1436,
  "cor": 1437,
  "surprised": 1438,
  "enĠtheĠ": 1439,
  "everyoneĠ": 1440,
  "treeĠandĠ": 1441,
  "tryĠ": 1442,
  ",ĠbutĠsheĠ": 1443,
  "keptĠ": 1444,
  "our": 1445,
  ".\n\nOnceĠuponĠaĠtime,ĠthereĠwasĠaĠlittleĠgirlĠnamedĠ": 1446,
  "badĠ": 1447,
  "Ġad": 1448,
  "openedĠtheĠ": 1449,
  "hadĠaĠbigĠ": 1450,
  "block": 1451,
  "enjo": 1452,
  ".Ġ\nTheĠ": 1453,
  "Hell": 1454,
  "sunnyĠ": 1455,
  "onĠtheĠground": 1456,
  "onĠhisĠ": 1457,
  "sna": 1458,
  "sho": 1459,
  "kitch": 1460,
  "ĠhowĠ": 1461,
  "shinyĠ": 1462,
  "remem": 1463,
  "livedĠaĠ": 1464,
  "didĠnotĠknowĠ": 1465,
  "backĠtoĠtheĠ": 1466,
  "favor": 1467,
  "isĠaĠ": 1468,
  ".\"\nTheĠ": 1469,
  "AnnaĠ": 1470,
  "strong": 1471,
  ".ĠSheĠsaid,Ġ\"": 1472,
  "flyĠ": 1473,
  "table": 1474,
  "cameĠtoĠ": 1475,
  "fly": 1476,
  "didĠnotĠwantĠtoĠ": 1477,
  "much": 1478,
  "loudĠ": 1479,
  ".ĠTheyĠbothĠ": 1480,
  "yĠan": 1481,
  "try": 1482,
  "thoughtĠitĠ": 1483,
  "heardĠaĠ": 1484,
  "saf": 1485,
  "Don'tĠ": 1486,
  "ily": 1487,
  "row": 1488,
  "vo": 1489,
  "forĠhelp": 1490,
  "outĠofĠtheĠ": 1491,
  "WhatĠ": 1492,
  "favoriteĠ": 1493,
  "ĠawayĠ": 1494,
  "curi": 1495,
  "moralĠ": 1496,
  "let'sĠ": 1497,
  "youĠcanĠ": 1498,
  "Fluff": 1499,
  "<|endoftext|>": 1500
}